const unsigned char model[] = {
  0x1c, 0x00, 0x00, 0x00, 0x54, 0x46, 0x4c, 0x33, 0x14, 0x00, 0x20, 0x00,
  0x1c, 0x00, 0x18, 0x00, 0x14, 0x00, 0x10, 0x00, 0x0c, 0x00, 0x00, 0x00,
  0x08, 0x00, 0x04, 0x00, 0x14, 0x00, 0x00, 0x00, 0x1c, 0x00, 0x00, 0x00,
  0x88, 0x00, 0x00, 0x00, 0xe0, 0x00, 0x00, 0x00, 0x00, 0x0e, 0x00, 0x00,
  0x10, 0x0e, 0x00, 0x00, 0xcc, 0x13, 0x00, 0x00, 0x03, 0x00, 0x00, 0x00,
  0x01, 0x00, 0x00, 0x00, 0x04, 0x00, 0x00, 0x00, 0xb2, 0xf1, 0xff, 0xff,
  0x0c, 0x00, 0x00, 0x00, 0x1c, 0x00, 0x00, 0x00, 0x38, 0x00, 0x00, 0x00,
  0x0f, 0x00, 0x00, 0x00, 0x73, 0x65, 0x72, 0x76, 0x69, 0x6e, 0x67, 0x5f,
  0x64, 0x65, 0x66, 0x61, 0x75, 0x6c, 0x74, 0x00, 0x01, 0x00, 0x00, 0x00,
  0x04, 0x00, 0x00, 0x00, 0x94, 0xff, 0xff, 0xff, 0x0a, 0x00, 0x00, 0x00,
  0x04, 0x00, 0x00, 0x00, 0x07, 0x00, 0x00, 0x00, 0x64, 0x65, 0x6e, 0x73,
  0x65, 0x5f, 0x35, 0x00, 0x01, 0x00, 0x00, 0x00, 0x04, 0x00, 0x00, 0x00,
  0x82, 0xf2, 0xff, 0xff, 0x04, 0x00, 0x00, 0x00, 0x0d, 0x00, 0x00, 0x00,
  0x64, 0x65, 0x6e, 0x73, 0x65, 0x5f, 0x33, 0x5f, 0x69, 0x6e, 0x70, 0x75,
  0x74, 0x00, 0x00, 0x00, 0x02, 0x00, 0x00, 0x00, 0x34, 0x00, 0x00, 0x00,
  0x04, 0x00, 0x00, 0x00, 0xdc, 0xff, 0xff, 0xff, 0x0d, 0x00, 0x00, 0x00,
  0x04, 0x00, 0x00, 0x00, 0x13, 0x00, 0x00, 0x00, 0x43, 0x4f, 0x4e, 0x56,
  0x45, 0x52, 0x53, 0x49, 0x4f, 0x4e, 0x5f, 0x4d, 0x45, 0x54, 0x41, 0x44,
  0x41, 0x54, 0x41, 0x00, 0x08, 0x00, 0x0c, 0x00, 0x08, 0x00, 0x04, 0x00,
  0x08, 0x00, 0x00, 0x00, 0x0c, 0x00, 0x00, 0x00, 0x04, 0x00, 0x00, 0x00,
  0x13, 0x00, 0x00, 0x00, 0x6d, 0x69, 0x6e, 0x5f, 0x72, 0x75, 0x6e, 0x74,
  0x69, 0x6d, 0x65, 0x5f, 0x76, 0x65, 0x72, 0x73, 0x69, 0x6f, 0x6e, 0x00,
  0x0e, 0x00, 0x00, 0x00, 0x1c, 0x0d, 0x00, 0x00, 0x14, 0x0d, 0x00, 0x00,
  0x00, 0x0d, 0x00, 0x00, 0xa8, 0x0c, 0x00, 0x00, 0x18, 0x0c, 0x00, 0x00,
  0x08, 0x09, 0x00, 0x00, 0xf8, 0x00, 0x00, 0x00, 0xa8, 0x00, 0x00, 0x00,
  0xa0, 0x00, 0x00, 0x00, 0x98, 0x00, 0x00, 0x00, 0x90, 0x00, 0x00, 0x00,
  0x88, 0x00, 0x00, 0x00, 0x68, 0x00, 0x00, 0x00, 0x04, 0x00, 0x00, 0x00,
  0x36, 0xf3, 0xff, 0xff, 0x04, 0x00, 0x00, 0x00, 0x54, 0x00, 0x00, 0x00,
  0x0c, 0x00, 0x00, 0x00, 0x08, 0x00, 0x0e, 0x00, 0x08, 0x00, 0x04, 0x00,
  0x08, 0x00, 0x00, 0x00, 0x10, 0x00, 0x00, 0x00, 0x24, 0x00, 0x00, 0x00,
  0x00, 0x00, 0x06, 0x00, 0x08, 0x00, 0x04, 0x00, 0x06, 0x00, 0x00, 0x00,
  0x04, 0x00, 0x00, 0x00, 0x00, 0x00, 0x00, 0x00, 0x00, 0x00, 0x0a, 0x00,
  0x10, 0x00, 0x0c, 0x00, 0x08, 0x00, 0x04, 0x00, 0x0a, 0x00, 0x00, 0x00,
  0x02, 0x00, 0x00, 0x00, 0x02, 0x00, 0x00, 0x00, 0x04, 0x00, 0x00, 0x00,
  0x06, 0x00, 0x00, 0x00, 0x32, 0x2e, 0x31, 0x32, 0x2e, 0x30, 0x00, 0x00,
  0x96, 0xf3, 0xff, 0xff, 0x04, 0x00, 0x00, 0x00, 0x10, 0x00, 0x00, 0x00,
  0x31, 0x2e, 0x31, 0x34, 0x2e, 0x30, 0x00, 0x00, 0x00, 0x00, 0x00, 0x00,
  0x00, 0x00, 0x00, 0x00, 0xf8, 0xed, 0xff, 0xff, 0xfc, 0xed, 0xff, 0xff,
  0x00, 0xee, 0xff, 0xff, 0x04, 0xee, 0xff, 0xff, 0xc2, 0xf3, 0xff, 0xff,
  0x04, 0x00, 0x00, 0x00, 0x40, 0x00, 0x00, 0x00, 0x10, 0x00, 0xf9, 0x3d,
  0x29, 0x13, 0xeb, 0x3e, 0x75, 0x17, 0x26, 0x3e, 0x68, 0x4b, 0x23, 0x3d,
  0xad, 0x42, 0x0d, 0x3d, 0xe4, 0x33, 0x92, 0xbe, 0xc9, 0x63, 0x55, 0x3c,
  0xdc, 0x9c, 0x3d, 0x3d, 0xca, 0xed, 0xb4, 0xbe, 0x9c, 0xd2, 0xb1, 0xbd,
  0x4e, 0xe6, 0xa6, 0x3e, 0x24, 0x83, 0xae, 0xbd, 0x14, 0x5f, 0x34, 0xbe,
  0x4d, 0x30, 0xc8, 0x3d, 0x54, 0x99, 0x2d, 0x3d, 0x42, 0xf5, 0xe7, 0x3d,
  0x0e, 0xf4, 0xff, 0xff, 0x04, 0x00, 0x00, 0x00, 0x00, 0x08, 0x00, 0x00,
  0x42, 0x04, 0x9f, 0xbd, 0x52, 0x0a, 0xc4, 0xbd, 0x85, 0xb6, 0x85, 0x3e,
  0x0c, 0xb6, 0x82, 0x3e, 0x18, 0xc7, 0xb1, 0xbd, 0xc4, 0xce, 0x9e, 0xbc,
  0x28, 0xd1, 0xdc, 0xbc, 0xbe, 0x1a, 0x2e, 0xbe, 0xcd, 0xe6, 0x8c, 0xbe,
  0x6e, 0x0e, 0x56, 0x3e, 0x6b, 0xfa, 0x03, 0x3f, 0x8d, 0x18, 0x44, 0xbd,
  0x98, 0x87, 0x89, 0xbe, 0x5c, 0x65, 0x26, 0x3e, 0xbb, 0xbe, 0x4a, 0xbe,
  0x3b, 0x1a, 0x4b, 0x3d, 0xcb, 0xb6, 0x3b, 0xbd, 0xa1, 0xf2, 0xc9, 0xbd,
  0xd3, 0x7e, 0xb4, 0xbc, 0x17, 0x02, 0x5b, 0xbd, 0x36, 0xbf, 0x24, 0xbe,
  0x3f, 0x1b, 0x3b, 0xbe, 0xc0, 0x2f, 0xa2, 0xbe, 0x4e, 0xbe, 0x4a, 0x3e,
  0xe0, 0x5c, 0xd1, 0xbd, 0x5c, 0x14, 0x85, 0x3e, 0xbf, 0xef, 0x88, 0xbe,
  0xdf, 0xc2, 0x22, 0xbe, 0x5a, 0xd8, 0x64, 0xbd, 0x4f, 0xee, 0x4e, 0xbe,
  0x18, 0x56, 0x3a, 0x3e, 0x7e, 0x66, 0x12, 0x3e, 0x75, 0xce, 0xe8, 0xbd,
  0xfe, 0x9b, 0x3a, 0x3e, 0x6c, 0xac, 0x77, 0xbe, 0x36, 0x90, 0x0e, 0xbe,
  0xbf, 0x30, 0x12, 0xbe, 0xf1, 0xe7, 0x26, 0xbe, 0xa1, 0xa5, 0xa2, 0xbe,
  0x7e, 0x3d, 0xb1, 0x3d, 0x36, 0x8c, 0xac, 0xbe, 0x24, 0x02, 0x51, 0xbe,
  0x78, 0xa0, 0x8f, 0xbd, 0xcc, 0xa2, 0x4a, 0xbe, 0x9c, 0x73, 0x69, 0x3e,
  0x39, 0x66, 0x92, 0xbe, 0x1f, 0x01, 0x84, 0xbe, 0x72, 0x08, 0xbf, 0xbe,
  0x91, 0x42, 0x61, 0xbe, 0x4b, 0x0c, 0x59, 0x3e, 0xdc, 0xa3, 0x0d, 0x3e,
  0xd2, 0x01, 0x97, 0xbd, 0x6c, 0x7d, 0x44, 0x3d, 0x42, 0x93, 0x84, 0xbe,
  0x73, 0x36, 0x98, 0xbe, 0x88, 0x1b, 0x16, 0xbd, 0x3a, 0xdf, 0x91, 0x3d,
  0x66, 0xcc, 0x93, 0xbe, 0x88, 0xa6, 0x7d, 0xbe, 0xca, 0x8b, 0xb9, 0xbe,
  0xd3, 0xb6, 0x76, 0xbe, 0xca, 0xb9, 0x88, 0x3b, 0x39, 0xcb, 0xc0, 0xbe,
  0x0a, 0xde, 0x49, 0xbe, 0x3e, 0x13, 0x43, 0xbe, 0x11, 0x48, 0x8e, 0xbe,
  0x24, 0xf8, 0x6a, 0x3e, 0x7b, 0xde, 0x38, 0x3e, 0xa2, 0xdb, 0xc1, 0xbe,
  0x03, 0x46, 0xf9, 0xbd, 0xf3, 0x23, 0x40, 0xbe, 0x30, 0xac, 0x21, 0xbe,
  0xca, 0x04, 0x00, 0xbe, 0x3f, 0xfa, 0xbf, 0x3d, 0xfe, 0x18, 0xfb, 0x3e,
  0x3a, 0x34, 0x74, 0xbd, 0xad, 0x1e, 0x00, 0x3e, 0x00, 0x0a, 0x85, 0xbe,
  0x38, 0x6b, 0x43, 0x3c, 0xd6, 0x39, 0x98, 0x3c, 0xf1, 0x23, 0x15, 0xbd,
  0xdb, 0x38, 0x6c, 0x3e, 0x57, 0x49, 0x5c, 0xbe, 0xe1, 0x50, 0x4b, 0xbe,
  0xb4, 0x4d, 0xfc, 0x3d, 0x23, 0x73, 0x57, 0xbe, 0x13, 0x8b, 0xa9, 0x3d,
  0x87, 0xe1, 0xd9, 0xbd, 0xea, 0xbe, 0xc9, 0xbd, 0xbc, 0x42, 0x19, 0xbe,
  0x9a, 0x8e, 0xa3, 0x3d, 0xcb, 0x92, 0xa1, 0xbd, 0xad, 0x18, 0x5a, 0xbe,
  0x7f, 0x7f, 0xdd, 0x3d, 0xa8, 0x06, 0xdc, 0x3d, 0x68, 0x76, 0x9a, 0x3d,
  0x0c, 0xf2, 0x3d, 0x3e, 0xbb, 0x4e, 0xb1, 0xbe, 0xa9, 0xfa, 0xe8, 0xbd,
  0x50, 0xe3, 0x1e, 0x3e, 0xb7, 0x94, 0xe2, 0xbe, 0x0b, 0x36, 0x0f, 0x3e,
  0xff, 0x90, 0x5b, 0xbe, 0x7b, 0x70, 0x22, 0xbe, 0xca, 0x81, 0x24, 0x3e,
  0x11, 0x9d, 0x17, 0xbe, 0x4a, 0xd5, 0xc4, 0x3f, 0xe6, 0x5f, 0xad, 0x3b,
  0xaf, 0x20, 0xd2, 0x3d, 0x4f, 0x48, 0x35, 0xbe, 0x36, 0x21, 0xd9, 0x3d,
  0xb1, 0x22, 0x5f, 0xbc, 0x2b, 0x6b, 0x85, 0xbe, 0x0b, 0xf9, 0x70, 0x3e,
  0xe3, 0xc8, 0xcf, 0xbe, 0x7b, 0x28, 0xb9, 0x3c, 0xe8, 0xc4, 0x44, 0x3e,
  0x97, 0x28, 0x58, 0x3e, 0x39, 0x19, 0x85, 0xbe, 0x5d, 0x5a, 0xcc, 0x3e,
  0xf1, 0xb3, 0xd1, 0xbe, 0xae, 0xbf, 0x51, 0x3e, 0x84, 0x21, 0x07, 0x3c,
  0x50, 0x8d, 0x93, 0x3d, 0x6d, 0xed, 0x1a, 0x3e, 0xb3, 0xdc, 0x53, 0x3d,
  0xd2, 0x4f, 0xc3, 0xbd, 0x16, 0x9b, 0x60, 0x3d, 0x84, 0xe5, 0xae, 0x3a,
  0x28, 0x55, 0x28, 0x3d, 0x79, 0xb7, 0x28, 0x3e, 0xf2, 0x58, 0x1d, 0xbe,
  0x96, 0x17, 0x16, 0x3e, 0x9f, 0x24, 0x28, 0xbe, 0xf7, 0x79, 0x2e, 0x3d,
  0x27, 0x10, 0xd7, 0xbc, 0x44, 0x35, 0x42, 0x3e, 0x7a, 0x95, 0x62, 0xbd,
  0xef, 0xdc, 0x64, 0x3f, 0x7c, 0xc8, 0x98, 0xbc, 0x25, 0xdc, 0x66, 0xbe,
  0x4a, 0xaf, 0x42, 0xbe, 0x72, 0xe4, 0x51, 0x3e, 0x40, 0xad, 0x44, 0xbd,
  0x22, 0xe3, 0xd4, 0xbd, 0x7c, 0x3e, 0xd2, 0x3e, 0xc2, 0x34, 0x5e, 0x3c,
  0xe5, 0xcf, 0xab, 0x3c, 0xe6, 0x9b, 0x93, 0x3d, 0x87, 0x75, 0x81, 0xbe,
  0xfb, 0x0c, 0x9d, 0xbd, 0x0c, 0x52, 0xc8, 0x3d, 0xf3, 0xa8, 0x31, 0xbe,
  0xcb, 0x61, 0x2d, 0x3e, 0xf9, 0x47, 0xaf, 0x3d, 0x41, 0xaf, 0xd5, 0xbb,
  0xf2, 0x6c, 0x7a, 0x3e, 0x34, 0xb3, 0x94, 0x3d, 0xfd, 0xec, 0x63, 0x3e,
  0xd3, 0x67, 0x51, 0x3e, 0xb2, 0x13, 0xd3, 0x3c, 0x43, 0x00, 0xe9, 0xbd,
  0xf6, 0x28, 0xb9, 0xbd, 0xff, 0x2c, 0xdb, 0xbd, 0x5f, 0xc2, 0xba, 0xbe,
  0x81, 0x76, 0xe0, 0x3d, 0x1c, 0x6f, 0x2d, 0xbe, 0x4a, 0xcd, 0x12, 0xbc,
  0x21, 0xcb, 0x81, 0xbe, 0x1f, 0xb1, 0x9d, 0x3d, 0xb0, 0xfc, 0xe3, 0x3d,
  0xc4, 0xb5, 0xda, 0xbd, 0x46, 0xa2, 0x18, 0x3c, 0xe2, 0x2d, 0xd3, 0x3d,
  0xc7, 0x13, 0xb4, 0xbc, 0x89, 0xe8, 0xb1, 0xbe, 0x28, 0xd0, 0xdb, 0x3b,
  0x5f, 0xb4, 0x8a, 0x3e, 0x72, 0xe1, 0x88, 0xbe, 0x35, 0xe2, 0x97, 0xbd,
  0x5e, 0x66, 0x94, 0xbd, 0xe6, 0xaa, 0x26, 0xbd, 0x95, 0xa5, 0x7f, 0xbe,
  0x5e, 0x44, 0xb1, 0x3a, 0x4f, 0x76, 0xd6, 0x3d, 0xd6, 0xbe, 0x8f, 0xbe,
  0xff, 0x40, 0x58, 0xbe, 0xd0, 0x38, 0xa2, 0xbe, 0xe2, 0xd2, 0xb3, 0xbe,
  0x79, 0x8d, 0x05, 0x3e, 0xb5, 0xaa, 0xf8, 0x3d, 0x4a, 0x09, 0x4e, 0xbe,
  0xb5, 0x35, 0xb2, 0x3d, 0x24, 0xb5, 0x84, 0x3e, 0xbb, 0xb0, 0x17, 0xbe,
  0x10, 0xa7, 0xbf, 0x3d, 0x8d, 0x69, 0xb4, 0xbe, 0xc2, 0xc5, 0xa5, 0xbe,
  0xb1, 0x1c, 0x20, 0x3e, 0xeb, 0x15, 0x97, 0xbe, 0xb4, 0xdd, 0xdf, 0x3d,
  0x53, 0x10, 0x3f, 0x3e, 0x2a, 0x7e, 0x1d, 0x3f, 0xf9, 0x74, 0xd2, 0x3d,
  0x6b, 0x19, 0x89, 0xbe, 0xee, 0x3e, 0xf8, 0xbd, 0xa1, 0xab, 0x54, 0xbe,
  0x40, 0x14, 0x7e, 0xbc, 0x53, 0x1b, 0x50, 0x3c, 0x8a, 0x79, 0x64, 0x3e,
  0x5c, 0x0f, 0x26, 0xbe, 0x40, 0x6a, 0x22, 0x3e, 0x82, 0x8f, 0x63, 0x3e,
  0x9f, 0xda, 0x4a, 0x3e, 0x2c, 0x5d, 0xa5, 0x3d, 0x61, 0x23, 0x29, 0x3d,
  0x81, 0x00, 0xdd, 0x3d, 0x55, 0x94, 0xdc, 0x3d, 0xea, 0xf5, 0xb5, 0xbe,
  0x5c, 0x46, 0x85, 0x3d, 0xce, 0x6f, 0x79, 0x3e, 0x58, 0xfa, 0x03, 0xbd,
  0xab, 0x52, 0xf4, 0xbc, 0x34, 0x86, 0x90, 0x3e, 0xc6, 0xb5, 0x62, 0x3d,
  0x0e, 0xfa, 0xc8, 0xbd, 0x60, 0xa4, 0x86, 0x3e, 0x63, 0x04, 0xfe, 0x3c,
  0xe1, 0xd7, 0xd1, 0x3d, 0x13, 0x5e, 0xe1, 0xbe, 0x79, 0xe9, 0x07, 0xbf,
  0x3f, 0x47, 0x42, 0x3e, 0x80, 0x0a, 0x0e, 0x3d, 0x35, 0xd8, 0xca, 0x3e,
  0xb4, 0x8d, 0x16, 0x3f, 0x25, 0x89, 0x7b, 0xbe, 0xeb, 0xcb, 0x0a, 0xbd,
  0x93, 0x95, 0x7d, 0xbe, 0x9c, 0x06, 0xc2, 0x3e, 0x0e, 0x37, 0x52, 0x3d,
  0x21, 0x70, 0xa0, 0xbd, 0x0c, 0x06, 0xea, 0x3e, 0x6f, 0x91, 0xfd, 0xbd,
  0x19, 0xd0, 0xc5, 0x3d, 0x31, 0xe8, 0xa5, 0xbe, 0x47, 0xa2, 0x13, 0x3e,
  0x1b, 0xc0, 0x98, 0x3d, 0x4b, 0x67, 0x89, 0xbd, 0x06, 0xc8, 0x88, 0xbe,
  0x41, 0xa0, 0x12, 0x3e, 0xcd, 0xae, 0xbd, 0x3d, 0xca, 0xc3, 0x63, 0xbd,
  0xa3, 0xce, 0x08, 0x3d, 0x36, 0xb5, 0x18, 0xbe, 0x74, 0x4b, 0xb2, 0x3c,
  0x68, 0x2a, 0xac, 0xbe, 0x58, 0x13, 0x3b, 0xbe, 0x04, 0xd5, 0x7a, 0xbe,
  0x85, 0xd2, 0xc8, 0x3d, 0x03, 0x41, 0x54, 0xbd, 0x16, 0xb7, 0x4c, 0x3e,
  0xfd, 0xbd, 0x0b, 0xbe, 0x94, 0x28, 0x14, 0xbe, 0x02, 0x78, 0x16, 0xbe,
  0x2f, 0x3c, 0x1f, 0xbd, 0x08, 0x39, 0xa9, 0xbe, 0x4f, 0x7a, 0xcd, 0xbd,
  0x28, 0x04, 0x23, 0xbe, 0x40, 0x49, 0x4d, 0x3e, 0x7e, 0x53, 0x42, 0x3d,
  0xb8, 0x5f, 0xaa, 0xbe, 0x80, 0x9d, 0x06, 0x3e, 0x89, 0x17, 0xcc, 0xbd,
  0x94, 0x22, 0x50, 0x3e, 0x53, 0x58, 0x0d, 0x3e, 0x87, 0x13, 0x8e, 0xbe,
  0x42, 0x54, 0x08, 0xbe, 0x75, 0xae, 0x77, 0x3c, 0xbe, 0xd6, 0xaf, 0xbe,
  0xfe, 0xc9, 0xae, 0xbc, 0xc7, 0x64, 0x8e, 0xbd, 0x93, 0x59, 0xab, 0x3d,
  0xe8, 0xdc, 0x23, 0xbe, 0xa2, 0x5e, 0x4b, 0x3d, 0xb3, 0xf2, 0x77, 0xbe,
  0x14, 0x26, 0xdf, 0xbe, 0x56, 0x8e, 0x83, 0xbd, 0x64, 0x6d, 0x04, 0xbd,
  0x75, 0x03, 0x3b, 0xbe, 0x2f, 0xa6, 0x24, 0xbe, 0x4c, 0xaa, 0x2c, 0x3e,
  0xb3, 0x51, 0xa1, 0xbe, 0x04, 0x94, 0x21, 0x3e, 0x1a, 0x9c, 0x1a, 0x3e,
  0x9e, 0xa9, 0x88, 0xbd, 0x4a, 0xc4, 0xa9, 0x3d, 0xa8, 0x89, 0x46, 0xba,
  0x31, 0xd4, 0xb1, 0xbe, 0x60, 0xe8, 0x4f, 0xbe, 0xb6, 0xea, 0xc1, 0xbd,
  0xbc, 0x77, 0x17, 0xbe, 0xe4, 0xfd, 0x37, 0x3e, 0x75, 0xb9, 0xa2, 0xbd,
  0x35, 0xba, 0x27, 0x3e, 0x77, 0x58, 0x04, 0xbe, 0x01, 0xfb, 0x6e, 0xbe,
  0x8e, 0x89, 0x96, 0xbe, 0x55, 0xce, 0x8b, 0xbe, 0xaf, 0xbb, 0xa4, 0xbe,
  0x89, 0xf7, 0x13, 0x3e, 0xab, 0x79, 0x04, 0x3e, 0x21, 0x4a, 0x7c, 0x3e,
  0xd7, 0x61, 0xcd, 0xbe, 0xac, 0xb6, 0x81, 0xbe, 0x5c, 0xf2, 0x49, 0xbd,
  0x84, 0x99, 0x23, 0xbe, 0x16, 0xf1, 0xab, 0x3c, 0x41, 0xea, 0x33, 0xbe,
  0x4c, 0x50, 0x1b, 0x3e, 0x32, 0x37, 0x21, 0x3d, 0x6d, 0x54, 0xae, 0xbd,
  0x09, 0x21, 0x25, 0xbb, 0x45, 0x61, 0xb5, 0xbe, 0x8a, 0x6d, 0x06, 0xbe,
  0x2d, 0x63, 0xfa, 0x3d, 0x23, 0x9c, 0x91, 0xbd, 0x7f, 0xbc, 0x82, 0xbe,
  0xa7, 0x7d, 0x85, 0xbe, 0x7c, 0xfc, 0x3e, 0xbe, 0x21, 0x45, 0x13, 0x3c,
  0x8f, 0x73, 0xc5, 0x3e, 0x8c, 0x80, 0x28, 0xbe, 0x1d, 0x8c, 0x68, 0x3c,
  0x96, 0xbc, 0xb1, 0xbe, 0x63, 0x41, 0xc2, 0xbd, 0xc0, 0x18, 0x07, 0xbe,
  0x8e, 0xb0, 0xc0, 0xbe, 0xbb, 0xda, 0x03, 0x3e, 0x57, 0xfa, 0x63, 0x3c,
  0x39, 0xca, 0xaf, 0xbd, 0x1a, 0xa8, 0x11, 0xbe, 0xc7, 0x6c, 0xb7, 0xbc,
  0x86, 0x49, 0x4a, 0x3d, 0xa8, 0xbb, 0x58, 0x3e, 0xc9, 0x41, 0x07, 0xbe,
  0x4d, 0x95, 0xba, 0xbe, 0x01, 0xc7, 0x88, 0xbc, 0x2a, 0x23, 0xc5, 0xbd,
  0x28, 0x0c, 0x55, 0x3e, 0xfb, 0x0d, 0x38, 0x3e, 0xfa, 0x1a, 0x90, 0x3d,
  0x5d, 0x4e, 0xa8, 0x3d, 0x13, 0xb2, 0x55, 0xbe, 0x25, 0x2a, 0x75, 0xbe,
  0x3d, 0x3b, 0x19, 0x3e, 0x81, 0xfc, 0xea, 0xbd, 0xd8, 0x60, 0x22, 0xbe,
  0x6e, 0x31, 0xd9, 0x3e, 0x83, 0x31, 0x32, 0xbe, 0x7e, 0x10, 0x08, 0xbe,
  0xe1, 0x8c, 0x8b, 0xbc, 0x00, 0x6d, 0x89, 0xbe, 0x31, 0x83, 0x86, 0xbf,
  0x46, 0x39, 0xde, 0x3d, 0xaa, 0x97, 0x03, 0x3d, 0x99, 0x59, 0xd4, 0xbd,
  0x07, 0x94, 0x61, 0xbe, 0x4e, 0x19, 0x88, 0xbc, 0x1c, 0x2c, 0xcc, 0xbc,
  0xd9, 0x5d, 0xda, 0x3d, 0x37, 0xb6, 0xde, 0xbd, 0x96, 0x28, 0x74, 0x3e,
  0x4e, 0x13, 0x7f, 0xbe, 0x2a, 0x85, 0x46, 0x3e, 0x0d, 0xb0, 0x48, 0xbd,
  0x3d, 0xd7, 0x9f, 0x3e, 0x19, 0xc9, 0x6b, 0x3d, 0xee, 0xf8, 0xa0, 0xbe,
  0x77, 0x82, 0x3a, 0xbe, 0x6d, 0xc4, 0xa9, 0xbd, 0x8c, 0x6f, 0x4d, 0xbe,
  0x2f, 0x77, 0xaa, 0xbd, 0xf1, 0x36, 0xd0, 0xbe, 0x40, 0x6d, 0x1f, 0x3e,
  0x7e, 0x1e, 0x2f, 0xbe, 0x46, 0x84, 0x9b, 0x3c, 0x11, 0x61, 0x77, 0x3e,
  0xf5, 0x1d, 0x43, 0xbe, 0x6b, 0x77, 0x21, 0x3e, 0x12, 0x42, 0x01, 0xbe,
  0xa5, 0x60, 0x52, 0x3e, 0x08, 0xbe, 0xa1, 0x3d, 0x1c, 0x0e, 0x0f, 0x3e,
  0xa3, 0x96, 0x2c, 0xbe, 0xf7, 0x0c, 0x53, 0x3e, 0x92, 0x2d, 0xc9, 0xbe,
  0xdb, 0x5e, 0x3b, 0xbe, 0xee, 0x89, 0x1c, 0xbe, 0xcb, 0x47, 0x85, 0xbe,
  0xd4, 0xa3, 0x47, 0xbe, 0xcc, 0xda, 0xd1, 0xbe, 0x2a, 0x34, 0x4a, 0xbd,
  0xb6, 0xc2, 0xaf, 0x3d, 0x67, 0x94, 0x92, 0xbe, 0x33, 0x0f, 0xa6, 0xbe,
  0x63, 0x48, 0xbf, 0xbd, 0x6b, 0x42, 0xc9, 0xbe, 0x49, 0xb7, 0x6a, 0xbe,
  0xc5, 0xf5, 0x86, 0xbd, 0x08, 0xc6, 0x16, 0xbe, 0xa6, 0x4d, 0xbd, 0xbe,
  0x48, 0xca, 0xc7, 0xbd, 0xc5, 0xe1, 0x60, 0x3d, 0xdf, 0x8f, 0x90, 0xbe,
  0x3f, 0xb5, 0xb1, 0xbe, 0xd3, 0x85, 0x0d, 0xbe, 0x34, 0x6b, 0x97, 0x3d,
  0xc5, 0xe3, 0x4d, 0xbd, 0x91, 0x45, 0xb6, 0xbd, 0xdf, 0xf0, 0x2f, 0xbe,
  0x73, 0x31, 0xcd, 0xbd, 0x62, 0xb7, 0x53, 0xbd, 0xf2, 0xd7, 0xb7, 0xbc,
  0x40, 0x92, 0x63, 0xbe, 0x80, 0x0d, 0x35, 0xbe, 0x56, 0x79, 0x8e, 0x3e,
  0x6b, 0x01, 0x55, 0x3f, 0x87, 0x22, 0xf1, 0xbd, 0xbb, 0x43, 0x86, 0xbe,
  0xc7, 0xd1, 0x4e, 0xbe, 0x33, 0x4a, 0x9b, 0xbd, 0x5e, 0xb2, 0xb4, 0xbc,
  0x04, 0x44, 0x92, 0xbe, 0x60, 0x17, 0x9a, 0x3e, 0xa2, 0xe0, 0x8e, 0xbe,
  0x8f, 0xe4, 0x07, 0x3e, 0x0c, 0xad, 0xad, 0x3d, 0xd2, 0x0d, 0xa2, 0x3e,
  0xad, 0x94, 0x5c, 0xbe, 0x26, 0xb0, 0xa6, 0x3d, 0x42, 0xb4, 0x29, 0xbe,
  0xe9, 0x67, 0x93, 0x3e, 0x72, 0xa7, 0x8f, 0xbd, 0x49, 0x5f, 0x3e, 0xbe,
  0xb0, 0x1a, 0xf4, 0x3e, 0xbd, 0x83, 0x94, 0x3d, 0xad, 0xf2, 0x63, 0x3e,
  0x34, 0x0a, 0xc7, 0xbd, 0x0f, 0xf8, 0x6f, 0x3e, 0xfa, 0x02, 0xc2, 0xbc,
  0xff, 0x29, 0x2b, 0xbe, 0x46, 0x3a, 0x2f, 0x3e, 0x9c, 0xae, 0xa3, 0xbe,
  0x5b, 0x9b, 0x02, 0xbe, 0xa0, 0x24, 0xcf, 0xb9, 0x33, 0x73, 0xdb, 0xbd,
  0xf6, 0xe1, 0x44, 0x3c, 0x7c, 0xe1, 0x8a, 0xbe, 0xaf, 0x3e, 0x3e, 0x3f,
  0xab, 0x97, 0x88, 0xbe, 0x1b, 0x31, 0x2f, 0xbe, 0x5d, 0x18, 0xe9, 0xbc,
  0xa8, 0x75, 0x87, 0x3d, 0x0e, 0x8d, 0x21, 0x3e, 0x0c, 0x81, 0x15, 0xbe,
  0x21, 0xd0, 0x58, 0x3d, 0xe3, 0xf0, 0x7f, 0xbe, 0x49, 0x45, 0x26, 0x3d,
  0xde, 0xeb, 0xc3, 0xbd, 0x04, 0x27, 0xa2, 0xbd, 0x6e, 0x72, 0x2b, 0x3e,
  0x9d, 0x30, 0x07, 0xbd, 0x28, 0x1f, 0x53, 0xbb, 0x84, 0xfb, 0xf2, 0x3e,
  0xdb, 0x60, 0x82, 0x3d, 0x32, 0x09, 0x7e, 0x3e, 0x67, 0x99, 0x0d, 0x3d,
  0xa7, 0x8b, 0x50, 0x3e, 0x73, 0xe1, 0x78, 0x3e, 0xcc, 0xcf, 0x50, 0xbe,
  0x10, 0x98, 0x36, 0x3c, 0xee, 0xf3, 0x07, 0xbe, 0x0e, 0x4c, 0x2a, 0x3e,
  0xb6, 0x89, 0x61, 0xbc, 0x02, 0xcc, 0x05, 0xbe, 0x2b, 0x0a, 0xc2, 0xbe,
  0xe0, 0xa3, 0xa8, 0x3d, 0x48, 0xa1, 0x40, 0xbd, 0x5e, 0x45, 0xef, 0xbd,
  0xca, 0x5e, 0x35, 0x3d, 0xc8, 0x26, 0x1c, 0x40, 0x1a, 0xc4, 0xc8, 0xbd,
  0x39, 0x6c, 0xbe, 0xbe, 0x90, 0x29, 0xfc, 0xbd, 0xa2, 0x44, 0x9c, 0xbd,
  0x99, 0xb4, 0xb3, 0x3d, 0x03, 0xfe, 0x99, 0xbe, 0xe1, 0xb7, 0x0f, 0x3f,
  0x43, 0x49, 0x8e, 0x3d, 0xa4, 0x56, 0x0f, 0x3c, 0xce, 0xa7, 0x43, 0x3e,
  0x26, 0x9e, 0xea, 0x3d, 0x66, 0xf5, 0x04, 0x3d, 0x1c, 0xcd, 0x02, 0x3e,
  0x6b, 0x79, 0x7f, 0xbd, 0x99, 0x29, 0xf6, 0x3d, 0x93, 0xbb, 0x1e, 0x3b,
  0x9c, 0x68, 0x83, 0x3e, 0xf4, 0xc5, 0x08, 0xbe, 0xc8, 0x20, 0x16, 0x3d,
  0xf8, 0xd1, 0x47, 0xbe, 0x45, 0xc7, 0x80, 0x3e, 0x1a, 0xfc, 0xff, 0xff,
  0x04, 0x00, 0x00, 0x00, 0x00, 0x03, 0x00, 0x00, 0x20, 0x18, 0x61, 0x3e,
  0xf3, 0xca, 0x35, 0xbf, 0x63, 0x81, 0x39, 0xbf, 0x28, 0xc7, 0x82, 0xbe,
  0x55, 0x07, 0xd8, 0x3e, 0x54, 0x77, 0xbf, 0x3d, 0x87, 0xb0, 0x03, 0x3f,
  0x9c, 0x80, 0x69, 0x3f, 0xd7, 0xd3, 0x06, 0xbe, 0x5b, 0x7c, 0xc9, 0xbd,
  0x2e, 0x23, 0xd0, 0x3e, 0x96, 0xf0, 0xf4, 0xbd, 0x19, 0xa7, 0x91, 0x3e,
  0xb0, 0xed, 0x51, 0xbe, 0x37, 0x52, 0x56, 0xbd, 0xd9, 0x16, 0x48, 0x3d,
  0xfc, 0xc4, 0x16, 0x3d, 0x91, 0x90, 0xa0, 0xbd, 0x00, 0xa6, 0x62, 0xbf,
  0x83, 0x03, 0xb8, 0xbf, 0xef, 0x06, 0x9d, 0xbf, 0x97, 0xe2, 0x87, 0x3e,
  0x4a, 0x1e, 0x0d, 0xbe, 0xbf, 0x42, 0x9b, 0x3d, 0x95, 0xfe, 0x76, 0xbe,
  0x34, 0x10, 0xa5, 0x3f, 0x73, 0xe0, 0x2b, 0x3d, 0xc6, 0x45, 0x30, 0x3c,
  0x28, 0x8c, 0x36, 0x3e, 0x15, 0x95, 0xb1, 0x3d, 0xae, 0xb8, 0xc8, 0xbe,
  0x5b, 0xe8, 0x19, 0x40, 0x57, 0x7c, 0xf2, 0x3f, 0xd2, 0xde, 0x5f, 0x3d,
  0x09, 0x11, 0xad, 0xbc, 0xc7, 0x88, 0x92, 0x3d, 0x0f, 0x07, 0x3f, 0x3e,
  0xbb, 0xe2, 0x27, 0xbf, 0x49, 0x13, 0x21, 0xbe, 0x34, 0xfc, 0x94, 0x3e,
  0xc2, 0x75, 0xa7, 0xbb, 0xb9, 0x14, 0xb2, 0x3e, 0x1e, 0x1c, 0x5b, 0x3f,
  0xfc, 0x5c, 0x97, 0x3f, 0xec, 0xbe, 0xc5, 0x3e, 0x6e, 0x00, 0x29, 0xbe,
  0x80, 0x92, 0x79, 0xbd, 0x2d, 0x80, 0x5f, 0xbd, 0x74, 0x57, 0x71, 0x3e,
  0x1a, 0xad, 0x27, 0x3f, 0x22, 0xf1, 0x4b, 0x3f, 0x5b, 0x33, 0x8b, 0xbe,
  0xde, 0xce, 0x79, 0xbd, 0xb9, 0x01, 0x90, 0xbe, 0xd5, 0x85, 0xbb, 0x3e,
  0xd6, 0xdf, 0x9c, 0xbf, 0x96, 0xf5, 0x37, 0xbf, 0x57, 0x4d, 0x46, 0xbe,
  0x8c, 0x98, 0x9f, 0x3e, 0x14, 0x5d, 0xa5, 0x3d, 0x93, 0x13, 0xab, 0xbe,
  0x7b, 0xe8, 0x73, 0xc0, 0x5e, 0x70, 0xdf, 0xbf, 0x78, 0x18, 0x95, 0x3b,
  0x0d, 0xa8, 0xe5, 0x3b, 0x3e, 0xb6, 0x22, 0x3c, 0x9e, 0xd1, 0x4e, 0x3f,
  0xd3, 0x3a, 0x23, 0x40, 0x76, 0x4d, 0x8d, 0x3f, 0xe0, 0xc6, 0x88, 0x3e,
  0x62, 0x52, 0xfb, 0x3d, 0x06, 0x07, 0x31, 0x3e, 0x1a, 0xba, 0xbc, 0x3e,
  0xf7, 0xe6, 0xfb, 0x3f, 0xc4, 0xaf, 0x53, 0x3f, 0x2c, 0x83, 0x26, 0x3c,
  0xe4, 0xad, 0xb0, 0x3d, 0x42, 0xaa, 0x8c, 0x3b, 0x22, 0x1f, 0x42, 0x3f,
  0x02, 0x39, 0xde, 0x3f, 0xaa, 0xbc, 0x0f, 0x3f, 0x5c, 0xd7, 0x31, 0x3e,
  0x01, 0xfe, 0xce, 0x3c, 0x9b, 0x91, 0x12, 0x3e, 0x77, 0x7c, 0x7e, 0xbe,
  0xf5, 0xef, 0x47, 0xbf, 0x79, 0x58, 0x2c, 0x3f, 0x1a, 0xa9, 0x84, 0x3e,
  0xca, 0x9a, 0xa0, 0xbc, 0x31, 0x53, 0x00, 0xbe, 0xe4, 0xec, 0x2c, 0x3e,
  0x23, 0x11, 0x06, 0xbf, 0x34, 0x4c, 0xa3, 0xbe, 0xb9, 0x0b, 0x59, 0xbe,
  0xdc, 0xcd, 0xe2, 0x3c, 0x02, 0x0d, 0x97, 0xbd, 0x76, 0x2e, 0x85, 0x3e,
  0x94, 0x84, 0xee, 0x3f, 0x72, 0x21, 0xa2, 0x3f, 0xc5, 0xdc, 0xdc, 0xbd,
  0xbb, 0x40, 0x08, 0xbd, 0xce, 0x56, 0x6f, 0xbd, 0xc4, 0x75, 0x39, 0xbf,
  0x34, 0xce, 0xc5, 0xbf, 0x05, 0x87, 0x5a, 0xbf, 0xb4, 0x80, 0xfa, 0x3b,
  0x16, 0x58, 0x8f, 0xbb, 0xda, 0x25, 0x6e, 0x3c, 0xae, 0x48, 0x78, 0x3e,
  0x32, 0x3c, 0xb4, 0x3e, 0xa6, 0xa3, 0x76, 0x3f, 0x85, 0xf0, 0x4e, 0xbe,
  0x1e, 0x90, 0xba, 0x3c, 0xc3, 0x52, 0x9d, 0x3d, 0x37, 0x13, 0x4d, 0xbe,
  0xf5, 0xd0, 0xb0, 0xbe, 0xc3, 0xf1, 0x1a, 0xbf, 0xae, 0x86, 0x4c, 0xbe,
  0x19, 0xb0, 0xc1, 0xbd, 0x85, 0x4d, 0xbb, 0x3e, 0x51, 0xe6, 0x3f, 0xbf,
  0x6c, 0xde, 0x10, 0xc0, 0xed, 0x2b, 0xc3, 0xbe, 0xff, 0xef, 0x41, 0x3e,
  0xae, 0xa5, 0xf5, 0xbd, 0x42, 0xb6, 0x32, 0xbd, 0x20, 0xdf, 0xa5, 0x3e,
  0xd3, 0x2a, 0x99, 0xbf, 0xf7, 0xe6, 0x06, 0x3e, 0xf0, 0xe3, 0x81, 0xbc,
  0x66, 0x48, 0x8b, 0xbb, 0x6e, 0x93, 0x74, 0xbe, 0x4a, 0xbc, 0x85, 0x3e,
  0x98, 0xd1, 0xc3, 0xbe, 0x17, 0x36, 0xd5, 0xbe, 0xd2, 0xbf, 0xa2, 0xbe,
  0xfa, 0x3c, 0xba, 0x3d, 0xb5, 0x98, 0x96, 0xbd, 0x5c, 0x3a, 0x67, 0xbf,
  0x27, 0x46, 0xd9, 0xbf, 0x75, 0xea, 0x90, 0xbf, 0xfa, 0x23, 0x00, 0xbb,
  0x60, 0xc5, 0x6e, 0xba, 0x52, 0xc5, 0x16, 0x3e, 0xd3, 0xb0, 0x43, 0x3e,
  0xc7, 0x24, 0x04, 0x40, 0xe4, 0x73, 0x5e, 0x3f, 0x9c, 0x8b, 0x9c, 0x3d,
  0xe6, 0x88, 0x21, 0x3e, 0xd8, 0x77, 0x9a, 0x3d, 0x4d, 0xb7, 0x83, 0xbf,
  0x11, 0x50, 0x48, 0xc0, 0x6f, 0x93, 0x5f, 0xbf, 0x49, 0x4f, 0x49, 0x3d,
  0x7e, 0xc1, 0xc8, 0xbc, 0x40, 0x5d, 0x5b, 0xb8, 0xe1, 0x3b, 0x05, 0x3e,
  0x20, 0x42, 0x01, 0x3e, 0x69, 0x07, 0x17, 0xbf, 0x8c, 0x3e, 0xb2, 0xbd,
  0x88, 0xc7, 0x5d, 0x3e, 0x15, 0xe7, 0x47, 0x3e, 0xed, 0xcd, 0x36, 0xbe,
  0xca, 0xb3, 0x9a, 0xbf, 0x6f, 0x28, 0xe3, 0xbe, 0xd6, 0x83, 0x33, 0x3e,
  0x69, 0xbd, 0x08, 0x3d, 0x5d, 0xd6, 0x29, 0x3e, 0x3f, 0x57, 0x43, 0xbf,
  0xef, 0xb6, 0x15, 0xc0, 0x5c, 0xd8, 0x1a, 0xbf, 0xa5, 0x6d, 0x2c, 0x3e,
  0xa8, 0x39, 0x85, 0xbd, 0x18, 0x38, 0xdd, 0x3d, 0x4e, 0x26, 0xc9, 0xbe,
  0xe9, 0x7d, 0xa5, 0xbf, 0x11, 0x8d, 0xb9, 0xbf, 0x52, 0x76, 0x87, 0xbe,
  0x24, 0xf0, 0x10, 0x3e, 0xa7, 0xdb, 0xa2, 0x3d, 0x06, 0x8e, 0x0b, 0x3d,
  0x41, 0xfd, 0xab, 0xbf, 0x9e, 0xce, 0xbf, 0xbd, 0x88, 0x87, 0x9b, 0xbd,
  0xa2, 0xf2, 0xcd, 0xbc, 0xe0, 0xd2, 0x38, 0xbe, 0x1d, 0x36, 0xf5, 0x3e,
  0xbb, 0x8a, 0x86, 0xbf, 0x76, 0x51, 0xc1, 0xbe, 0x9a, 0x99, 0x27, 0xbe,
  0x83, 0xc0, 0x56, 0x3e, 0x9a, 0x92, 0x24, 0xbe, 0x26, 0xff, 0xff, 0xff,
  0x04, 0x00, 0x00, 0x00, 0x80, 0x00, 0x00, 0x00, 0x04, 0x3e, 0xc5, 0xbe,
  0x95, 0x48, 0x0a, 0xbf, 0x66, 0x94, 0x50, 0xbe, 0x64, 0xbc, 0xdb, 0x3b,
  0x4d, 0x68, 0xb9, 0xbe, 0xbf, 0x01, 0x0f, 0x3f, 0x66, 0x80, 0xb2, 0xbc,
  0xf1, 0x55, 0xac, 0x3d, 0x5c, 0x3a, 0x7d, 0xbe, 0x84, 0xfc, 0x0f, 0xbf,
  0xe3, 0xe6, 0x46, 0x3f, 0xde, 0xc1, 0x76, 0xbe, 0x8d, 0x55, 0x14, 0x3d,
  0xad, 0x13, 0xdc, 0xbd, 0x72, 0x54, 0x81, 0xbd, 0x6d, 0x56, 0xcc, 0xbd,
  0x49, 0x2d, 0x5b, 0x3e, 0xdb, 0x2a, 0x42, 0x3e, 0xd8, 0x9d, 0xb1, 0x3d,
  0xd9, 0xea, 0x25, 0xbe, 0xaa, 0x51, 0xfb, 0xbd, 0xc1, 0x8c, 0x48, 0xbd,
  0xb3, 0x85, 0xae, 0xbe, 0xde, 0x34, 0x94, 0x3e, 0x58, 0xd0, 0x18, 0x3d,
  0xf1, 0x3d, 0x54, 0x3e, 0xed, 0x20, 0xac, 0xbe, 0x69, 0x08, 0x12, 0xbd,
  0xfd, 0xb7, 0xf6, 0x3d, 0x52, 0xf7, 0x0f, 0xbf, 0x7f, 0xf2, 0xc8, 0xbe,
  0x90, 0x82, 0xc8, 0xbe, 0xb2, 0xff, 0xff, 0xff, 0x04, 0x00, 0x00, 0x00,
  0x40, 0x00, 0x00, 0x00, 0xc7, 0x00, 0xdc, 0xbd, 0x71, 0xf9, 0x7d, 0xbe,
  0xa1, 0xf7, 0x63, 0xbe, 0x5c, 0xd1, 0x6d, 0x3e, 0x84, 0x7d, 0xd2, 0xbe,
  0xfa, 0xb9, 0xcd, 0xbd, 0xc8, 0xd2, 0xf7, 0xbe, 0xe3, 0x58, 0x80, 0xbf,
  0x1d, 0x7c, 0x2a, 0xbe, 0x0c, 0xbd, 0x83, 0x3e, 0xab, 0x6c, 0xae, 0xbe,
  0xac, 0x6a, 0x5b, 0x3f, 0x59, 0xec, 0x18, 0xbe, 0xec, 0x63, 0x88, 0x3d,
  0x85, 0xa7, 0x9c, 0xbe, 0x8e, 0x89, 0x78, 0xbe, 0x00, 0x00, 0x06, 0x00,
  0x08, 0x00, 0x04, 0x00, 0x06, 0x00, 0x00, 0x00, 0x04, 0x00, 0x00, 0x00,
  0x04, 0x00, 0x00, 0x00, 0x42, 0xae, 0x8b, 0xbf, 0x5c, 0xfa, 0xff, 0xff,
  0x60, 0xfa, 0xff, 0xff, 0x0f, 0x00, 0x00, 0x00, 0x4d, 0x4c, 0x49, 0x52,
  0x20, 0x43, 0x6f, 0x6e, 0x76, 0x65, 0x72, 0x74, 0x65, 0x64, 0x2e, 0x00,
  0x01, 0x00, 0x00, 0x00, 0x14, 0x00, 0x00, 0x00, 0x00, 0x00, 0x0e, 0x00,
  0x18, 0x00, 0x14, 0x00, 0x10, 0x00, 0x0c, 0x00, 0x08, 0x00, 0x04, 0x00,
  0x0e, 0x00, 0x00, 0x00, 0x14, 0x00, 0x00, 0x00, 0x1c, 0x00, 0x00, 0x00,
  0x08, 0x01, 0x00, 0x00, 0x0c, 0x01, 0x00, 0x00, 0x10, 0x01, 0x00, 0x00,
  0x04, 0x00, 0x00, 0x00, 0x6d, 0x61, 0x69, 0x6e, 0x00, 0x00, 0x00, 0x00,
  0x04, 0x00, 0x00, 0x00, 0xb0, 0x00, 0x00, 0x00, 0x68, 0x00, 0x00, 0x00,
  0x34, 0x00, 0x00, 0x00, 0x10, 0x00, 0x00, 0x00, 0x00, 0x00, 0x0a, 0x00,
  0x10, 0x00, 0x0c, 0x00, 0x08, 0x00, 0x04, 0x00, 0x0a, 0x00, 0x00, 0x00,
  0x0c, 0x00, 0x00, 0x00, 0x10, 0x00, 0x00, 0x00, 0x01, 0x00, 0x00, 0x00,
  0x01, 0x00, 0x00, 0x00, 0x0a, 0x00, 0x00, 0x00, 0x01, 0x00, 0x00, 0x00,
  0x09, 0x00, 0x00, 0x00, 0x9a, 0xff, 0xff, 0xff, 0x10, 0x00, 0x00, 0x00,
  0x00, 0x00, 0x00, 0x08, 0x0c, 0x00, 0x00, 0x00, 0x10, 0x00, 0x00, 0x00,
  0x08, 0xfb, 0xff, 0xff, 0x01, 0x00, 0x00, 0x00, 0x09, 0x00, 0x00, 0x00,
  0x03, 0x00, 0x00, 0x00, 0x08, 0x00, 0x00, 0x00, 0x06, 0x00, 0x00, 0x00,
  0x01, 0x00, 0x00, 0x00, 0xca, 0xff, 0xff, 0xff, 0x10, 0x00, 0x00, 0x00,
  0x00, 0x00, 0x00, 0x08, 0x10, 0x00, 0x00, 0x00, 0x14, 0x00, 0x00, 0x00,
  0xba, 0xff, 0xff, 0xff, 0x00, 0x00, 0x00, 0x01, 0x01, 0x00, 0x00, 0x00,
  0x08, 0x00, 0x00, 0x00, 0x03, 0x00, 0x00, 0x00, 0x07, 0x00, 0x00, 0x00,
  0x05, 0x00, 0x00, 0x00, 0x02, 0x00, 0x00, 0x00, 0x00, 0x00, 0x0e, 0x00,
  0x16, 0x00, 0x00, 0x00, 0x10, 0x00, 0x0c, 0x00, 0x0b, 0x00, 0x04, 0x00,
  0x0e, 0x00, 0x00, 0x00, 0x18, 0x00, 0x00, 0x00, 0x00, 0x00, 0x00, 0x08,
  0x18, 0x00, 0x00, 0x00, 0x1c, 0x00, 0x00, 0x00, 0x00, 0x00, 0x06, 0x00,
  0x08, 0x00, 0x07, 0x00, 0x06, 0x00, 0x00, 0x00, 0x00, 0x00, 0x00, 0x01,
  0x01, 0x00, 0x00, 0x00, 0x07, 0x00, 0x00, 0x00, 0x03, 0x00, 0x00, 0x00,
  0x00, 0x00, 0x00, 0x00, 0x04, 0x00, 0x00, 0x00, 0x03, 0x00, 0x00, 0x00,
  0x01, 0x00, 0x00, 0x00, 0x0a, 0x00, 0x00, 0x00, 0x01, 0x00, 0x00, 0x00,
  0x00, 0x00, 0x00, 0x00, 0x0b, 0x00, 0x00, 0x00, 0x20, 0x04, 0x00, 0x00,
  0xb0, 0x03, 0x00, 0x00, 0x40, 0x03, 0x00, 0x00, 0xe8, 0x02, 0x00, 0x00,
  0x9c, 0x02, 0x00, 0x00, 0x50, 0x02, 0x00, 0x00, 0x04, 0x02, 0x00, 0x00,
  0x70, 0x01, 0x00, 0x00, 0xdc, 0x00, 0x00, 0x00, 0x60, 0x00, 0x00, 0x00,
  0x04, 0x00, 0x00, 0x00, 0x22, 0xfc, 0xff, 0xff, 0x00, 0x00, 0x00, 0x01,
  0x14, 0x00, 0x00, 0x00, 0x1c, 0x00, 0x00, 0x00, 0x1c, 0x00, 0x00, 0x00,
  0x0b, 0x00, 0x00, 0x00, 0x34, 0x00, 0x00, 0x00, 0x02, 0x00, 0x00, 0x00,
  0xff, 0xff, 0xff, 0xff, 0x01, 0x00, 0x00, 0x00, 0x0c, 0xfc, 0xff, 0xff,
  0x19, 0x00, 0x00, 0x00, 0x53, 0x74, 0x61, 0x74, 0x65, 0x66, 0x75, 0x6c,
  0x50, 0x61, 0x72, 0x74, 0x69, 0x74, 0x69, 0x6f, 0x6e, 0x65, 0x64, 0x43,
  0x61, 0x6c, 0x6c, 0x3a, 0x30, 0x00, 0x00, 0x00, 0x02, 0x00, 0x00, 0x00,
  0x01, 0x00, 0x00, 0x00, 0x01, 0x00, 0x00, 0x00, 0x7a, 0xfc, 0xff, 0xff,
  0x00, 0x00, 0x00, 0x01, 0x14, 0x00, 0x00, 0x00, 0x1c, 0x00, 0x00, 0x00,
  0x1c, 0x00, 0x00, 0x00, 0x0a, 0x00, 0x00, 0x00, 0x54, 0x00, 0x00, 0x00,
  0x02, 0x00, 0x00, 0x00, 0xff, 0xff, 0xff, 0xff, 0x01, 0x00, 0x00, 0x00,
  0x64, 0xfc, 0xff, 0xff, 0x38, 0x00, 0x00, 0x00, 0x73, 0x65, 0x71, 0x75,
  0x65, 0x6e, 0x74, 0x69, 0x61, 0x6c, 0x5f, 0x31, 0x2f, 0x64, 0x65, 0x6e,
  0x73, 0x65, 0x5f, 0x35, 0x2f, 0x4d, 0x61, 0x74, 0x4d, 0x75, 0x6c, 0x3b,
  0x73, 0x65, 0x71, 0x75, 0x65, 0x6e, 0x74, 0x69, 0x61, 0x6c, 0x5f, 0x31,
  0x2f, 0x64, 0x65, 0x6e, 0x73, 0x65, 0x5f, 0x35, 0x2f, 0x42, 0x69, 0x61,
  0x73, 0x41, 0x64, 0x64, 0x00, 0x00, 0x00, 0x00, 0x02, 0x00, 0x00, 0x00,
  0x01, 0x00, 0x00, 0x00, 0x01, 0x00, 0x00, 0x00, 0xf2, 0xfc, 0xff, 0xff,
  0x00, 0x00, 0x00, 0x01, 0x14, 0x00, 0x00, 0x00, 0x1c, 0x00, 0x00, 0x00,
  0x1c, 0x00, 0x00, 0x00, 0x09, 0x00, 0x00, 0x00, 0x6c, 0x00, 0x00, 0x00,
  0x02, 0x00, 0x00, 0x00, 0xff, 0xff, 0xff, 0xff, 0x10, 0x00, 0x00, 0x00,
  0xdc, 0xfc, 0xff, 0xff, 0x52, 0x00, 0x00, 0x00, 0x73, 0x65, 0x71, 0x75,
  0x65, 0x6e, 0x74, 0x69, 0x61, 0x6c, 0x5f, 0x31, 0x2f, 0x64, 0x65, 0x6e,
  0x73, 0x65, 0x5f, 0x34, 0x2f, 0x4d, 0x61, 0x74, 0x4d, 0x75, 0x6c, 0x3b,
  0x73, 0x65, 0x71, 0x75, 0x65, 0x6e, 0x74, 0x69, 0x61, 0x6c, 0x5f, 0x31,
  0x2f, 0x64, 0x65, 0x6e, 0x73, 0x65, 0x5f, 0x34, 0x2f, 0x52, 0x65, 0x6c,
  0x75, 0x3b, 0x73, 0x65, 0x71, 0x75, 0x65, 0x6e, 0x74, 0x69, 0x61, 0x6c,
  0x5f, 0x31, 0x2f, 0x64, 0x65, 0x6e, 0x73, 0x65, 0x5f, 0x34, 0x2f, 0x42,
  0x69, 0x61, 0x73, 0x41, 0x64, 0x64, 0x00, 0x00, 0x02, 0x00, 0x00, 0x00,
  0x01, 0x00, 0x00, 0x00, 0x10, 0x00, 0x00, 0x00, 0x82, 0xfd, 0xff, 0xff,
  0x00, 0x00, 0x00, 0x01, 0x14, 0x00, 0x00, 0x00, 0x1c, 0x00, 0x00, 0x00,
  0x1c, 0x00, 0x00, 0x00, 0x08, 0x00, 0x00, 0x00, 0x6c, 0x00, 0x00, 0x00,
  0x02, 0x00, 0x00, 0x00, 0xff, 0xff, 0xff, 0xff, 0x20, 0x00, 0x00, 0x00,
  0x6c, 0xfd, 0xff, 0xff, 0x52, 0x00, 0x00, 0x00, 0x73, 0x65, 0x71, 0x75,
  0x65, 0x6e, 0x74, 0x69, 0x61, 0x6c, 0x5f, 0x31, 0x2f, 0x64, 0x65, 0x6e,
  0x73, 0x65, 0x5f, 0x33, 0x2f, 0x4d, 0x61, 0x74, 0x4d, 0x75, 0x6c, 0x3b,
  0x73, 0x65, 0x71, 0x75, 0x65, 0x6e, 0x74, 0x69, 0x61, 0x6c, 0x5f, 0x31,
  0x2f, 0x64, 0x65, 0x6e, 0x73, 0x65, 0x5f, 0x33, 0x2f, 0x52, 0x65, 0x6c,
  0x75, 0x3b, 0x73, 0x65, 0x71, 0x75, 0x65, 0x6e, 0x74, 0x69, 0x61, 0x6c,
  0x5f, 0x31, 0x2f, 0x64, 0x65, 0x6e, 0x73, 0x65, 0x5f, 0x33, 0x2f, 0x42,
  0x69, 0x61, 0x73, 0x41, 0x64, 0x64, 0x00, 0x00, 0x02, 0x00, 0x00, 0x00,
  0x01, 0x00, 0x00, 0x00, 0x20, 0x00, 0x00, 0x00, 0x7e, 0xfe, 0xff, 0xff,
  0x00, 0x00, 0x00, 0x01, 0x10, 0x00, 0x00, 0x00, 0x10, 0x00, 0x00, 0x00,
  0x07, 0x00, 0x00, 0x00, 0x28, 0x00, 0x00, 0x00, 0xec, 0xfd, 0xff, 0xff,
  0x1b, 0x00, 0x00, 0x00, 0x73, 0x65, 0x71, 0x75, 0x65, 0x6e, 0x74, 0x69,
  0x61, 0x6c, 0x5f, 0x31, 0x2f, 0x64, 0x65, 0x6e, 0x73, 0x65, 0x5f, 0x35,
  0x2f, 0x4d, 0x61, 0x74, 0x4d, 0x75, 0x6c, 0x00, 0x02, 0x00, 0x00, 0x00,
  0x01, 0x00, 0x00, 0x00, 0x10, 0x00, 0x00, 0x00, 0xc6, 0xfe, 0xff, 0xff,
  0x00, 0x00, 0x00, 0x01, 0x10, 0x00, 0x00, 0x00, 0x10, 0x00, 0x00, 0x00,
  0x06, 0x00, 0x00, 0x00, 0x28, 0x00, 0x00, 0x00, 0x34, 0xfe, 0xff, 0xff,
  0x1b, 0x00, 0x00, 0x00, 0x73, 0x65, 0x71, 0x75, 0x65, 0x6e, 0x74, 0x69,
  0x61, 0x6c, 0x5f, 0x31, 0x2f, 0x64, 0x65, 0x6e, 0x73, 0x65, 0x5f, 0x34,
  0x2f, 0x4d, 0x61, 0x74, 0x4d, 0x75, 0x6c, 0x00, 0x02, 0x00, 0x00, 0x00,
  0x10, 0x00, 0x00, 0x00, 0x20, 0x00, 0x00, 0x00, 0x0e, 0xff, 0xff, 0xff,
  0x00, 0x00, 0x00, 0x01, 0x10, 0x00, 0x00, 0x00, 0x10, 0x00, 0x00, 0x00,
  0x05, 0x00, 0x00, 0x00, 0x28, 0x00, 0x00, 0x00, 0x7c, 0xfe, 0xff, 0xff,
  0x1b, 0x00, 0x00, 0x00, 0x73, 0x65, 0x71, 0x75, 0x65, 0x6e, 0x74, 0x69,
  0x61, 0x6c, 0x5f, 0x31, 0x2f, 0x64, 0x65, 0x6e, 0x73, 0x65, 0x5f, 0x33,
  0x2f, 0x4d, 0x61, 0x74, 0x4d, 0x75, 0x6c, 0x00, 0x02, 0x00, 0x00, 0x00,
  0x20, 0x00, 0x00, 0x00, 0x06, 0x00, 0x00, 0x00, 0x56, 0xff, 0xff, 0xff,
  0x00, 0x00, 0x00, 0x01, 0x10, 0x00, 0x00, 0x00, 0x10, 0x00, 0x00, 0x00,
  0x04, 0x00, 0x00, 0x00, 0x38, 0x00, 0x00, 0x00, 0xc4, 0xfe, 0xff, 0xff,
  0x2b, 0x00, 0x00, 0x00, 0x73, 0x65, 0x71, 0x75, 0x65, 0x6e, 0x74, 0x69,
  0x61, 0x6c, 0x5f, 0x31, 0x2f, 0x64, 0x65, 0x6e, 0x73, 0x65, 0x5f, 0x33,
  0x2f, 0x42, 0x69, 0x61, 0x73, 0x41, 0x64, 0x64, 0x2f, 0x52, 0x65, 0x61,
  0x64, 0x56, 0x61, 0x72, 0x69, 0x61, 0x62, 0x6c, 0x65, 0x4f, 0x70, 0x00,
  0x01, 0x00, 0x00, 0x00, 0x20, 0x00, 0x00, 0x00, 0xaa, 0xff, 0xff, 0xff,
  0x00, 0x00, 0x00, 0x01, 0x10, 0x00, 0x00, 0x00, 0x10, 0x00, 0x00, 0x00,
  0x03, 0x00, 0x00, 0x00, 0x38, 0x00, 0x00, 0x00, 0x18, 0xff, 0xff, 0xff,
  0x2b, 0x00, 0x00, 0x00, 0x73, 0x65, 0x71, 0x75, 0x65, 0x6e, 0x74, 0x69,
  0x61, 0x6c, 0x5f, 0x31, 0x2f, 0x64, 0x65, 0x6e, 0x73, 0x65, 0x5f, 0x34,
  0x2f, 0x42, 0x69, 0x61, 0x73, 0x41, 0x64, 0x64, 0x2f, 0x52, 0x65, 0x61,
  0x64, 0x56, 0x61, 0x72, 0x69, 0x61, 0x62, 0x6c, 0x65, 0x4f, 0x70, 0x00,
  0x01, 0x00, 0x00, 0x00, 0x10, 0x00, 0x00, 0x00, 0x00, 0x00, 0x16, 0x00,
  0x18, 0x00, 0x14, 0x00, 0x00, 0x00, 0x10, 0x00, 0x0c, 0x00, 0x08, 0x00,
  0x00, 0x00, 0x00, 0x00, 0x00, 0x00, 0x07, 0x00, 0x16, 0x00, 0x00, 0x00,
  0x00, 0x00, 0x00, 0x01, 0x10, 0x00, 0x00, 0x00, 0x10, 0x00, 0x00, 0x00,
  0x02, 0x00, 0x00, 0x00, 0x38, 0x00, 0x00, 0x00, 0x84, 0xff, 0xff, 0xff,
  0x2b, 0x00, 0x00, 0x00, 0x73, 0x65, 0x71, 0x75, 0x65, 0x6e, 0x74, 0x69,
  0x61, 0x6c, 0x5f, 0x31, 0x2f, 0x64, 0x65, 0x6e, 0x73, 0x65, 0x5f, 0x35,
  0x2f, 0x42, 0x69, 0x61, 0x73, 0x41, 0x64, 0x64, 0x2f, 0x52, 0x65, 0x61,
  0x64, 0x56, 0x61, 0x72, 0x69, 0x61, 0x62, 0x6c, 0x65, 0x4f, 0x70, 0x00,
  0x01, 0x00, 0x00, 0x00, 0x01, 0x00, 0x00, 0x00, 0x00, 0x00, 0x16, 0x00,
  0x1c, 0x00, 0x18, 0x00, 0x00, 0x00, 0x14, 0x00, 0x10, 0x00, 0x0c, 0x00,
  0x00, 0x00, 0x00, 0x00, 0x08, 0x00, 0x07, 0x00, 0x16, 0x00, 0x00, 0x00,
  0x00, 0x00, 0x00, 0x01, 0x14, 0x00, 0x00, 0x00, 0x20, 0x00, 0x00, 0x00,
  0x20, 0x00, 0x00, 0x00, 0x01, 0x00, 0x00, 0x00, 0x3c, 0x00, 0x00, 0x00,
  0x02, 0x00, 0x00, 0x00, 0xff, 0xff, 0xff, 0xff, 0x06, 0x00, 0x00, 0x00,
  0x04, 0x00, 0x04, 0x00, 0x04, 0x00, 0x00, 0x00, 0x1f, 0x00, 0x00, 0x00,
  0x73, 0x65, 0x72, 0x76, 0x69, 0x6e, 0x67, 0x5f, 0x64, 0x65, 0x66, 0x61,
  0x75, 0x6c, 0x74, 0x5f, 0x64, 0x65, 0x6e, 0x73, 0x65, 0x5f, 0x33, 0x5f,
  0x69, 0x6e, 0x70, 0x75, 0x74, 0x3a, 0x30, 0x00, 0x02, 0x00, 0x00, 0x00,
  0x01, 0x00, 0x00, 0x00, 0x06, 0x00, 0x00, 0x00, 0x02, 0x00, 0x00, 0x00,
  0x20, 0x00, 0x00, 0x00, 0x04, 0x00, 0x00, 0x00, 0xf4, 0xff, 0xff, 0xff,
  0x0e, 0x00, 0x00, 0x00, 0x00, 0x00, 0x00, 0x0e, 0x0c, 0x00, 0x0c, 0x00,
  0x0b, 0x00, 0x00, 0x00, 0x00, 0x00, 0x04, 0x00, 0x0c, 0x00, 0x00, 0x00,
  0x09, 0x00, 0x00, 0x00, 0x00, 0x00, 0x00, 0x09
};
